<blk> 0
<sos/eos> 1
<unk> 2
▁LÀ 3
▁CÁI 4
▁MỘT 5
▁MÌNH 6
▁CÓ 7
▁THÌ 8
▁MÀ 9
▁VÀ 10
▁KHÔNG 11
▁CỦA 12
▁NÓ 13
▁NHỮNG 14
▁NGƯỜI 15
▁ĐÓ 16
N 17
▁ĐƯỢC 18
▁EM 19
▁NHƯ 20
▁CŨNG 21
▁CHO 22
S 23
I 24
▁TRONG 25
▁VỚI 26
▁SẼ 27
▁ 28
▁ĐỂ 29
▁RẤT 30
T 31
▁NÀY 32
M 33
▁RA 34
▁CÁC 35
▁LÀM 36
▁PHẢI 37
▁TA 38
NG 39
▁THỂ 40
▁ANH 41
▁KHI 42
▁ĐÃ 43
▁VỀ 44
▁BẠN 45
▁Ở 46
▁NHƯNG 47
▁NHIỀU 48
▁THE 49
▁HAI 50
▁S 51
▁ĐI 52
▁A 53
▁RỒI 54
▁LẠI 55
Y 56
▁ĐẾN 57
▁HỌ 58
▁NÓI 59
P 60
▁THẾ 61
▁TO 62
O 63
A 64
▁CHÚNG 65
▁SỰ 66
▁ĐẦU 67
▁GÌ 68
▁THẤY 69
▁VÌ 70
▁VIỆC 71
▁AND 72
U 73
▁NÀO 74
▁CÔNG 75
▁HAY 76
▁NĂM 77
C 78
▁TÔI 79
▁TỪ 80
▁CHỊ 81
▁CON 82
▁YOU 83
▁HƠN 84
▁VÀO 85
▁TẠI 86
▁CẢ 87
▁BA 88
ING 89
▁MƯƠI 90
▁ĐẤY 91
▁CÒN 92
▁GIỜ 93
▁THAT 94
▁VẬY 95
▁IN 96
▁OF 97
▁NGHĨ 98
▁BIẾT 99
▁CHỈ 100
▁CẢM 101
▁CHUYỆN 102
▁SO 103
▁ĐANG 104
D 105
▁NÊN 106
▁ĐÚNG 107
▁MỚI 108
▁TRĂM 109
▁HỌC 110
▁ĐÂY 111
▁THÀNH 112
▁KHÁC 113
▁SAU 114
▁NẾU 115
G 116
▁LÚC 117
▁MỌI 118
▁QUAN 119
▁THỨ 120
▁IT 121
▁CHÍNH 122
▁THỜI 123
E 124
▁TRÊN 125
▁MUỐN 126
▁BỊ 127
▁NHÀ 128
▁CÁCH 129
▁NHẤT 130
▁NGÀY 131
▁WE 132
▁THEO 133
▁LUÔN 134
▁ĐIỀU 135
▁CÂU 136
▁B 137
▁THÔI 138
▁M 139
▁PHẦN 140
▁NHÂN 141
▁SAO 142
▁HIỆN 143
▁DO 144
▁NỮA 145
▁QUÁ 146
▁SỐ 147
▁NAM 148
▁THỰC 149
▁C 150
▁QUA 151
▁BẢN 152
▁TƯ 153
▁VẪN 154
▁TRƯỜNG 155
▁LÊN 156
▁GIA 157
▁HÀNG 158
▁TỰ 159
▁TRƯỚC 160
ER 161
▁T 162
▁MƯỜI 163
▁BÂY 164
▁TỚI 165
▁RẰNG 166
▁CÙNG 167
▁ĐỘNG 168
▁NHẬN 169
▁ĐỒNG 170
▁IS 171
▁VIỆT 172
▁RE 173
▁L 174
LE 175
▁TRÌNH 176
▁TIẾP 177
▁ĐỊNH 178
▁ÔNG 179
▁CÔ 180
▁NHAU 181
▁CẦN 182
▁THẬT 183
ED 184
▁NHÌN 185
CH 186
▁CUỘC 187
▁LÝ 188
▁GIÁ 189
▁GỌI 190
▁SỐNG 191
▁HOẶC 192
▁HÌNH 193
▁Ý 194
▁ĐIỂM 195
▁BẮT 196
▁FOR 197
▁TÂM 198
▁NGHÌN 199
▁TIN 200
▁SẢN 201
R 202
▁ĐỐI 203
▁TỨC 204
▁PHÁT 205
B 206
▁CƠ 207
▁HÀNH 208
▁D 209
▁G 210
▁NĂNG 211
▁ĐỀ 212
▁BÊN 213
▁HỎI 214
▁V 215
▁NGHIỆP 216
▁BỞI 217
▁H 218
▁TẤT 219
▁LỚN 220
▁HIỂU 221
▁CHƯA 222
▁GIAN 223
▁KIỂU 224
▁ĐÂU 225
AL 226
▁AI 227
▁NAY 228
▁NƯỚC 229
▁THÔNG 230
IN 231
▁THÍCH 232
▁THÂN 233
▁Đ 234
▁TÌM 235
▁BỘ 236
RE 237
▁NHIÊN 238
▁DỤ 239
RI 240
▁LIKE 241
▁THƯỜNG 242
▁TIỀN 243
▁TỐT 244
▁N 245
▁HẾT 246
▁TẬP 247
▁ẤY 248
▁VỊ 249
▁TẠO 250
▁HỘI 251
▁R 252
▁CỨ 253
▁THỊ 254
▁DOANH 255
▁VẤN 256
▁HỢP 257
▁TIÊN 258
▁VÍ 259
▁CHỨ 260
▁TRUNG 261
▁TRỞ 262
▁TÌNH 263
▁HAVE 264
▁DỤNG 265
▁KHÓ 266
▁TR 267
K 268
▁TOÀN 269
H 270
▁KINH 271
▁LẦN 272
▁GIỚI 273
▁NG 274
▁NGOÀI 275
▁E 276
▁GIỐNG 277
OR 278
▁NGHE 279
▁THỨC 280
▁LỰC 281
▁ĐỔI 282
▁BE 283
▁MẸ 284
▁Á 285
▁AN 286
▁TH 287
▁TÍNH 288
▁KNOW 289
▁SINH 290
▁BAO 291
ST 292
F 293
▁TRỌNG 294
▁YÊU 295
NH 296
▁BẰNG 297
▁CH 298
▁MẶT 299
▁CHẮC 300
▁F 301
▁NGHĨA 302
▁KẾT 303
▁BÌNH 304
▁TÁC 305
Ạ 306
▁CHIA 307
▁THAY 308
▁TIẾNG 309
AR 310
▁VỪA 311
▁XONG 312
▁XEM 313
▁THEY 314
▁VIÊN 315
W 316
▁BỐN 317
RA 318
▁HÔM 319
▁THƯƠNG 320
▁PHẨM 321
▁LIÊN 322
▁HỆ 323
▁KHÁCH 324
▁LƯỢNG 325
▁SỬ 326
▁TY 327
▁ĐỘ 328
▁BUT 329
▁CAO 330
▁CHÍN 331
▁TÀI 332
▁ARE 333
▁ĐỀU 334
▁CHỦ 335
▁TRIỂN 336
▁BÀI 337
▁GIẢI 338
▁ĂN 339
AN 340
▁BẢO 341
▁THÁNG 342
▁SÁU 343
▁VÔ 344
▁ẢNH 345
▁CAN 346
▁CHI 347
▁KỲ 348
▁X 349
▁K 350
IC 351
▁XUẤT 352
▁MỖI 353
▁TRỊ 354
▁QUỐC 355
▁QUYẾT 356
▁THÊM 357
▁CO 358
▁SÁCH 359
▁GẶP 360
▁LỜI 361
▁GIẢ 362
▁GIÚP 363
▁DÙNG 364
▁BẤT 365
▁CA 366
▁TRẺ 367
▁ĐƯỜNG 368
▁MUA 369
▁TẾ 370
▁SẺ 371
▁CHUNG 372
▁THU 373
▁VIDEO 374
▁NH 375
▁HÓA 376
▁AS 377
▁BẢY 378
▁KHOẢNG 379
EN 380
▁TIÊU 381
▁NGAY 382
▁THAM 383
V 384
▁NGHIỆM 385
▁BIỆT 386
▁WHAT 387
▁BÀ 388
CK 389
▁TÁM 390
RO 391
▁GẦN 392
▁ĐƯA 393
▁ĐẠI 394
▁ĐỜI 395
▁CHỌN 396
▁ST 397
▁MINH 398
▁NGHỆ 399
▁VĂN 400
SE 401
Á 402
▁THINK 403
▁CỐ 404
▁HỒI 405
▁HOÀN 406
▁MA 407
▁WITH 408
▁VI 409
▁MANG 410
▁THIS 411
▁VẬT 412
▁ME 413
▁DÂN 414
▁HẠN 415
▁CHIẾN 416
▁CHÚ 417
Ế 418
▁OR 419
▁NHỎ 420
▁ON 421
▁SÁNG 422
▁LA 423
ES 424
▁MẤY 425
▁ĐẶC 426
▁VỤ 427
▁HIỆU 428
ENT 429
▁W 430
▁LO 431
▁TỪNG 432
▁ABOUT 433
IT 434
▁ƠN 435
TER 436
UR 437
▁HƯỚNG 438
X 439
▁CẦU 440
LY 441
▁TUỔI 442
▁KHU 443
▁KHÁ 444
L 445
▁QUAY 446
▁CHÍ 447
▁HỒ 448
▁TÊN 449
▁CUỐI 450
▁DI 451
▁LẮM 452
▁RIÊNG 453
▁CHẤT 454
▁CHƯƠNG 455
LI 456
▁TĂNG 457
▁RÕ 458
Ố 459
▁SĨ 460
▁DỄ 461
LA 462
▁BỐ 463
▁ĐỦ 464
▁DỊCH 465
▁NOT 466
Ồ 467
ON 468
▁CHẲNG 469
▁MỸ 470
▁SỨC 471
▁BỎ 472
▁CHƠI 473
CE 474
▁QUẢ 475
▁BÁN 476
▁MẠNH 477
▁PHIM 478
▁I 479
▁DIỄN 480
▁NHA 481
▁DẠ 482
TH 483
▁CHUYỂN 484
▁CHA 485
▁TRÍ 486
▁PHƯƠNG 487
▁NỘI 488
▁MẤT 489
▁DÙ 490
▁TƯƠNG 491
▁WAS 492
▁KỂ 493
▁ĐƠN 494
É 495
LO 496
▁XIN 497
▁P 498
▁ĐÌNH 499
▁HÃY 500
▁CÁ 501
▁THERE 502
▁CÀNG 503
▁LIỆU 504
▁VUI 505
▁PHÒNG 506
▁TỤC 507
▁TRẢI 508
LL 509
▁HO 510
▁PEOPLE 511
▁MỞ 512
TE 513
Ô 514
▁DỰ 515
▁TƯỞNG 516
▁ĐOẠN 517
▁TÍCH 518
▁NGÀNH 519
▁NHỚ 520
▁KIA 521
▁DE 522
▁TRÒ 523
▁MI 524
▁VIẾT 525
▁TRẢ 526
▁LINH 527
▁AT 528
▁ĐÁNH 529
ET 530
▁HƠI 531
▁CẤP 532
▁VERY 533
▁XÃ 534
▁PH 535
▁TRUYỀN 536
▁THỐNG 537
▁PHÁP 538
▁O 539
▁DẪN 540
▁HÁT 541
▁TAY 542
EL 543
▁LẬP 544
▁MO 545
▁CỤ 546
CT 547
▁ĐỌC 548
▁KIẾN 549
▁ĐẠO 550
▁RIGHT 551
▁GO 552
▁NGUYÊN 553
▁VIETNAM 554
▁YEAH 555
▁CỰC 556
▁ĐẶT 557
▁TỔ 558
▁NƠI 559
▁PA 560
▁NGỒI 561
▁CẢNH 562
▁LĂM 563
▁MONG 564
▁RO 565
▁ĐỒ 566
▁SU 567
▁TUY 568
Ã 569
▁MÁY 570
▁ỨNG 571
▁YẾU 572
▁XE 573
▁TRANG 574
▁JUST 575
▁BƯỚC 576
▁CHÚT 577
▁MỤC 578
▁VỰC 579
Ờ 580
▁MY 581
▁KHẢ 582
▁BÁO 583
▁GIÁO 584
▁SÁT 585
▁LẤY 586
▁SUY 587
▁HE 588
▁LÂU 589
▁PHỐ 590
▁GIAO 591
▁KHIẾN 592
▁XÂY 593
AD 594
VI 595
▁XÚC 596
▁MÉT 597
▁KỸ 598
Ọ 599
▁ĐÔI 600
▁GIÁC 601
▁THẦY 602
Ư 603
▁HOẠT 604
▁TỐ 605
▁GIỮA 606
▁THIẾT 607
▁XU 608
Z 609
▁BECAUSE 610
▁CỘNG 611
▁CHỨC 612
▁ĐẸP 613
▁ÍT 614
VE 615
▁U 616
▁Ạ 617
▁Y 618
▁ÁN 619
▁OK 620
▁BIẾN 621
▁ĐỘI 622
IL 623
▁TRANH 624
▁QUÂN 625
ATE 626
▁SỢ 627
▁KẾ 628
▁ĐIỆN 629
▁PHÁ 630
▁DÀI 631
▁PHÂN 632
▁CUỐN 633
▁HI 634
▁ĐẤT 635
TION 636
▁NHANH 637
▁HOW 638
▁DUNG 639
TA 640
SH 641
▁FA 642
▁QUÝ 643
ATION 644
Ớ 645
▁OUR 646
▁DÀNH 647
▁CỨU 648
▁NHẠC 649
VER 650
▁DUY 651
▁MỨC 652
▁ONE 653
▁TƯỢNG 654
▁HOA 655
▁LE 656
Ầ 657
▁BAN 658
Ó 659
▁LỢI 660
▁YOUR 661
▁LOẠI 662
▁FROM 663
▁THỬ 664
▁CHỨNG 665
▁THẦN 666
▁KH 667
▁HƯỞNG 668
▁DỰNG 669
▁ALL 670
▁LOT 671
▁REALLY 672
▁XƯA 673
▁TỈNH 674
▁COI 675
▁QUY 676
▁NO 677
▁À 678
Ù 679
Â 680
Ụ 681
▁MORE 682
DE 683
▁BÉ 684
▁XUỐNG 685
▁NỮ 686
▁MÔ 687
▁BỆNH 688
▁CHUYÊN 689
▁PHÍA 690
ION 691
▁TIẾN 692
▁DƯỚI 693
▁SAI 694
▁CHỖ 695
▁GIỮ 696
▁PHỤ 697
▁IF 698
▁DON 699
MENT 700
▁ĐỨA 701
▁SA 702
▁THUẬT 703
▁CỔ 704
AS 705
▁TRA 706
▁THANH 707
▁TRIỆU 708
▁TINH 709
▁NHÓM 710
▁TỤI 711
Ơ 712
OL 713
▁BO 714
▁TRỢ 715
▁TIME 716
▁US 717
NA 718
ESS 719
Ệ 720
▁XÁC 721
Ê 722
▁QUẢN 723
ARD 724
▁NỀN 725
▁ĐỊA 726
▁THỦ 727
▁QUYỀN 728
▁CHẠY 729
▁QU 730
Ứ 731
▁VỌNG 732
▁TIẾT 733
MA 734
▁TRỜI 735
CO 736
▁THẬM 737
▁MẠNG 738
▁SE 739
▁BÁC 740
▁SOME 741
▁HA 742
▁NGA 743
▁ĐẠT 744
▁CHẮN 745
▁SÂU 746
▁THI 747
▁KI 748
▁MẮT 749
▁CHIẾC 750
▁EX 751
Ò 752
▁WHEN 753
▁SỞ 754
▁UP 755
▁THƯ 756
▁THÁI 757
▁THEN 758
▁KIẾM 759
▁XA 760
▁CHUẨN 761
▁LÒNG 762
▁MẶC 763
▁NỔI 764
▁HÀ 765
▁GIAI 766
▁CHÀO 767
▁KHÍ 768
▁NÈ 769
ƯƠNG 770
ME 771
▁RÀNG 772
▁NGUỒN 773
▁CẠNH 774
▁TỔNG 775
▁ĐỪNG 776
▁PHỤC 777
▁CẬU 778
▁WANT 779
▁MAY 780
▁SAY 781
▁HUY 782
▁ÁP 783
Ì 784
▁UỐNG 785
▁KHÁN 786
▁GAME 787
▁LÃNH 788
Ú 789
▁ĐÁ 790
▁ĐÔNG 791
DER 792
▁DIỆN 793
▁XẢY 794
▁SANG 795
▁DA 796
RT 797
US 798
▁THÚ 799
▁CHỮ 800
▁DU 801
▁DỤC 802
▁KIỆN 803
AT 804
▁QUEN 805
▁ĐÁNG 806
▁TỶ 807
Ẻ 808
▁THUỘC 809
▁VE 810
▁TỐI 811
▁ALSO 812
ITY 813
PER 814
▁GI 815
▁NHIÊU 816
▁MỜI 817
KE 818
▁KHĂN 819
▁PRO 820
▁OUT 821
▁VÀI 822
▁TRƯỞNG 823
▁GA 824
▁ĐỨNG 825
▁WORK 826
▁HỘ 827
▁KHOA 828
▁GIẢM 829
▁PO 830
▁NGHỀ 831
▁HẢ 832
IA 833
▁BUSINESS 834
▁HẠNH 835
▁LỊCH 836
▁TÍ 837
▁CHẾ 838
▁PHÚC 839
▁ĐA 840
ERS 841
▁CHÂN 842
▁KÊNH 843
DI 844
▁SEE 845
▁WILL 846
▁BỌN 847
▁CHỊU 848
▁ĐÔ 849
▁GIẢN 850
▁DẠY 851
▁NẰM 852
▁NGHIÊN 853
▁TU 854
▁HU 855
▁NHẬP 856
▁MỐI 857
▁LI 858
▁NHÉ 859
▁QUANH 860
▁KHỎI 861
MO 862
RY 863
▁KHAI 864
CI 865
▁PHÍ 866
▁DẦN 867
▁NEW 868
▁HẠ 869
▁LAI 870
CA 871
▁VẺ 872
▁TỬ 873
▁NOW 874
▁VAI 875
▁CHẾT 876
NO 877
▁TRAI 878
IE 879
▁CÀ 880
▁WELL 881
▁LÁ 882
Ỡ 883
▁HERE 884
▁TI 885
HA 886
▁CỬA 887
▁GẮNG 888
▁NHIỆM 889
▁TRÁI 890
▁GÁI 891
▁LỰA 892
▁KHỎE 893
▁PHẢN 894
▁BÀN 895
▁NHẬT 896
EST 897
▁PHÙ 898
▁NHU 899
▁BUỔI 900
▁CÂY 901
Ợ 902
Ỗ 903
▁Ô 904
▁TUẦN 905
▁ĐOÀN 906
MAN 907
▁GET 908
▁LẼ 909
NE 910
TOR 911
▁KIND 912
▁KIỂM 913
Ỏ 914
▁LỚP 915
▁BAY 916
▁NHẮC 917
▁ÂM 918
Ả 919
KI 920
▁TẦM 921
▁UKRAINE 922
▁HÒA 923
▁DÒNG 924
▁ƠI 925
▁KÝ 926
▁WHO 927
▁SHOW 928
▁CHẤP 929
Í 930
▁PHONG 931
DA 932
▁ĐAU 933
▁GÓC 934
ONE 935
▁SẴN 936
▁HỖ 937
▁MÓN 938
▁DANH 939
▁SƯ 940
Ở 941
▁LĨNH 942
▁NỐI 943
▁TEAM 944
▁TÁ 945
▁HY 946
GE 947
▁ĐẦY 948
▁CHU 949
AND 950
▁MÔI 951
AGE 952
▁VÙNG 953
▁ĐÓNG 954
Ề 955
▁VŨ 956
▁VIỆN 957
▁MEAN 958
▁SẮC 959
▁MAKE 960
ELL 961
▁NGÂN 962
▁FI 963
▁VÒNG 964
▁LỘ 965
▁J 966
▁CUNG 967
▁ĐÀN 968
▁TOÁN 969
▁THOẠI 970
▁VẬN 971
▁WOULD 972
▁MÀU 973
▁LAN 974
IVE 975
▁ỔN 976
▁PHI 977
▁GOING 978
URE 979
ABLE 980
▁VỆ 981
È 982
▁LUẬN 983
▁NÃY 984
UT 985
▁LẠ 986
▁THEM 987
▁THIẾU 988
▁ĐÀ 989
▁GOOD 990
▁WAY 991
RU 992
▁ĐĂNG 993
INE 994
TO 995
▁APP 996
▁RỘNG 997
▁LOOK 998
▁VA 999
▁VỐN 1000
FF 1001
Ự 1002
HO 1003
▁THIÊN 1004
▁GÂY 1005
▁BI 1006
▁LONG 1007
▁HOẠCH 1008
▁LUẬT 1009
▁PHÚT 1010
▁LẮNG 1011
▁NEED 1012
▁TRỰC 1013
▁PHÊ 1014
▁VƯỢT 1015
▁HỮU 1016
▁THEIR 1017
IST 1018
▁BÁNH 1019
▁KHỔ 1020
BO 1021
▁KỶ 1022
▁PODCAST 1023
▁TRẠNG 1024
LU 1025
Ủ 1026
▁NGỦ 1027
▁DẠNG 1028
▁LU 1029
▁GIỎI 1030
▁ĐỘC 1031
▁TALK 1032
PE 1033
▁MAR 1034
▁KHÁNH 1035
▁TRI 1036
IGHT 1037
▁NIỆM 1038
▁HOÀNG 1039
▁Z 1040
▁YEARS 1041
IR 1042
▁CHỒNG 1043
J 1044
▁GHI 1045
▁CÁO 1046
▁KHOẢN 1047
▁OTHER 1048
▁LỆ 1049
▁CĂN 1050
▁XỬ 1051
▁CẬN 1052
▁START 1053
À 1054
▁DỮ 1055
▁GỬI 1056
▁BU 1057
PO 1058
▁TÒ 1059
▁RU 1060
▁SẮP 1061
▁WHERE 1062
▁UN 1063
▁KHỞI 1064
▁TÂY 1065
ẾN 1066
▁THINGS 1067
▁VỢ 1068
▁THUYẾT 1069
▁NIỀM 1070
▁AD 1071
▁LƯU 1072
▁BỨC 1073
▁NGOẠI 1074
▁NHỜ 1075
▁ĐỨC 1076
ỆT 1077
▁ĐẤU 1078
▁QUÊN 1079
ANCE 1080
▁RI 1081
▁PHÉP 1082
▁MỐT 1083
▁Ừ 1084
▁THƠ 1085
▁BEEN 1086
▁FIRST 1087
▁DỊ 1088
▁TÚ 1089
▁ACTUALLY 1090
▁BRAND 1091
▁CÂN 1092
▁BÍ 1093
▁THẤT 1094
▁MAI 1095
▁HIỂM 1096
▁ĐEM 1097
▁NGHI 1098
▁VÊ 1099
▁SÂN 1100
▁EVEN 1101
ỀN 1102
▁DIFFERENT 1103
▁MẮN 1104
▁TẢNG 1105
Ẹ 1106
▁PI 1107
LD 1108
▁MÊ 1109
▁BUỒN 1110
▁TÊ 1111
▁CHÂU 1112
▁ĐÀO 1113
▁TRÀ 1114
▁TẤN 1115
▁DÕI 1116
▁TRÁCH 1117
▁HAS 1118
▁NÔNG 1119
▁NA 1120
▁BIG 1121
GO 1122
▁CHIỀU 1123
▁DỰA 1124
▁CHĂM 1125
▁HƯƠNG 1126
▁GIÀ 1127
DO 1128
▁CƯ 1129
▁NGƯỢC 1130
▁ÍCH 1131
▁BIỂN 1132
▁SUỐT 1133
Ổ 1134
▁LẠC 1135
▁TẬN 1136
BA 1137
▁MÔN 1138
▁XÉT 1139
▁SOMETHING 1140
WA 1141
KA 1142
SON 1143
▁THÚC 1144
▁KHẮC 1145
VA 1146
▁TỎ 1147
▁WHICH 1148
▁MARKETING 1149
▁SỚM 1150
▁THẲNG 1151
▁BIỂU 1152
▁WA 1153
▁BACK 1154
▁MƠ 1155
▁ĐẨY 1156
▁PHIẾU 1157
▁ĐẢO 1158
▁GU 1159
▁THIỆN 1160
▁KÉO 1161
▁LÔ 1162
▁TRAO 1163
▁MÙA 1164
▁COME 1165
▁GÓP 1166
▁ĐÍCH 1167
▁GIANG 1168
▁YÊN 1169
▁THÙ 1170
▁JA 1171
▁MARKET 1172
▁NGỮ 1173
▁PHẨY 1174
▁NGỜ 1175
SIDE 1176
▁BY 1177
▁SƠ 1178
▁NE 1179
▁LƯƠNG 1180
ALLY 1181
▁ĐÊM 1182
▁NGẮN 1183
▁KẺ 1184
▁BẮC 1185
▁BUỘC 1186
▁NỖI 1187
▁ĐẢM 1188
▁LỖI 1189
▁JO 1190
▁EVERY 1191
▁TE 1192
▁VÂN 1193
▁THOSE 1194
▁OH 1195
▁CẬP 1196
▁ẤN 1197
▁MAN 1198
UL 1199
▁PHỦ 1200
▁COMPANY 1201
▁PRODUCT 1202
▁QUÁN 1203
▁PHẠM 1204
▁BÓNG 1205
▁LUYỆN 1206
▁LET 1207
▁QUỸ 1208
▁ƯU 1209
▁SÀNG 1210
▁DƯƠNG 1211
▁XÍU 1212
▁MÁI 1213
▁CHE 1214
▁THẢ 1215
▁LAO 1216
▁HẸN 1217
▁CAM 1218
▁TÀU 1219
▁ĐÁP 1220
▁OVER 1221
▁TÔ 1222
▁HẬU 1223
ÂU 1224
▁MAYBE 1225
▁THANK 1226
▁THÁCH 1227
▁COMP 1228
ANT 1229
▁CƯỜI 1230
ÊU 1231
QU 1232
▁CHỜ 1233
▁TÔN 1234
▁WORLD 1235
▁CHẢ 1236
FI 1237
▁INTO 1238
▁LEARN 1239
▁ÉT 1240
▁TAKE 1241
▁MUCH 1242
▁LOVE 1243
Ỉ 1244
▁TỒN 1245
▁CHÁU 1246
▁BÈ 1247
▁ĐỔ 1248
▁PRE 1249
▁OKAY 1250
▁MẮC 1251
BI 1252
▁LY 1253
▁PHIÊN 1254
▁XUYÊN 1255
▁THESE 1256
▁QUẢNG 1257
▁TRỤ 1258
▁HAD 1259
▁CU 1260
▁NUÔI 1261
▁VIETNAMESE 1262
▁NGHỈ 1263
ÊM 1264
▁KHO 1265
▁KHỦNG 1266
▁NGUY 1267
▁NGON 1268
▁NGÔN 1269
▁ƯỚC 1270
▁NHẸ 1271
▁BIT 1272
▁ĐỠ 1273
▁BẠC 1274
▁ÁO 1275
▁CHẤM 1276
▁COVID 1277
▁PE 1278
BER 1279
▁NHÁ 1280
▁TRẦN 1281
▁THIỆU 1282
▁CŨ 1283
▁SOÁT 1284
▁CẦM 1285
▁IM 1286
▁TRẬN 1287
▁NI 1288
▁GEN 1289
▁DƯ 1290
▁LƯỢC 1291
▁GỒM 1292
▁KÍCH 1293
▁CAR 1294
▁DÀNG 1295
▁THẮNG 1296
▁TUYỆT 1297
SHIP 1298
▁WHY 1299
▁NGÔI 1300
▁NGŨ 1301
▁ĐỢI 1302
▁MÒ 1303
▁HỨNG 1304
▁LỬA 1305
▁TRÁNH 1306
▁BUILD 1307
▁XANH 1308
▁ĐOÁN 1309
▁MÃ 1310
▁BẠI 1311
▁WERE 1312
▁FEEL 1313
▁TẠM 1314
▁NGHỊ 1315
PA 1316
▁KÊU 1317
▁KÉP 1318
▁NẶNG 1319
▁HẲN 1320
▁THUẬN 1321
▁NÂNG 1322
▁YES 1323
▁THỦY 1324
▁ĐƯƠNG 1325
OUS 1326
▁HÉC 1327
▁HẦU 1328
▁SIÊU 1329
▁PHA 1330
▁TẢ 1331
▁ĐO 1332
▁KHÁM 1333
Ễ 1334
▁SƠN 1335
▁THOẢI 1336
▁DỪNG 1337
Ể 1338
▁THẤP 1339
▁YOUTUBE 1340
▁TWO 1341
▁ỦNG 1342
▁HÚT 1343
▁CHỐNG 1344
▁THÍ 1345
▁THAN 1346
▁VỮNG 1347
IZE 1348
ƯỢNG 1349
▁LITTLE 1350
▁DID 1351
▁DẤU 1352
▁VẼ 1353
▁CẮT 1354
▁KHUYÊN 1355
▁GẮN 1356
▁TẦNG 1357
▁TIM 1358
▁BỔ 1359
▁THING 1360
▁MANY 1361
▁XẤU 1362
▁MẪU 1363
▁TRÌ 1364
▁HỀ 1365
▁MỪNG 1366
ULT 1367
▁TODAY 1368
▁GROW 1369
▁DÁM 1370
▁HẮN 1371
▁HUYỆN 1372
▁SÁNH 1373
▁DOING 1374
▁BIÊN 1375
▁ANY 1376
▁KHẨU 1377
▁PART 1378
▁HẤP 1379
▁HÀI 1380
▁NINH 1381
HE 1382
▁SÓC 1383
▁XẾP 1384
▁RỦI 1385
▁ÉP 1386
▁ĐỘT 1387
▁SHARE 1388
▁MÃI 1389
▁NẠN 1390
▁MẬT 1391
▁TỘI 1392
▁ĐÊ 1393
▁TÙY 1394
▁TIỆN 1395
ƯỚC 1396
▁HẠI 1397
▁PERSON 1398
▁HẢI 1399
Ị 1400
▁RƠI 1401
▁ONLINE 1402
▁HÀO 1403
▁GỐC 1404
▁CHỈNH 1405
▁KIM 1406
▁STILL 1407
▁LIFE 1408
▁NHẢY 1409
▁LIỀN 1410
FUL 1411
▁NGUYỄN 1412
▁COMMENT 1413
▁DAY 1414
▁KHÓA 1415
▁QUESTION 1416
▁TẾT 1417
▁ALWAYS 1418
▁SURE 1419
▁KHOÁN 1420
▁LỄ 1421
TRA 1422
▁LÊ 1423
▁YEAR 1424
▁BÁ 1425
▁BÙ 1426
▁VO 1427
▁HÔN 1428
▁ẨN 1429
▁GIẤY 1430
▁NẮM 1431
▁THUỐC 1432
▁FACEBOOK 1433
▁TRÚC 1434
▁DẬY 1435
▁HELP 1436
▁VÂNG 1437
UND 1438
▁GOT 1439
THER 1440
▁PHỔ 1441
▁KỊCH 1442
▁ÂU 1443
ENCE 1444
▁MÁU 1445
▁GREAT 1446
▁CAMERA 1447
▁THOÁT 1448
▁KHÁI 1449
▁PHỎNG 1450
▁INVEST 1451
▁STARTUP 1452
▁TÙ 1453
▁GIÀU 1454
▁KA 1455
▁HÙNG 1456
▁MẠI 1457
▁CÁNH 1458
▁THẢO 1459
▁THIỆT 1460
▁TRỪ 1461
▁NGÀN 1462
▁SCHOOL 1463
▁COULD 1464
▁ÁNH 1465
▁MỜ 1466
▁NGẠI 1467
▁PHÚ 1468
▁HƯ 1469
▁PHẬT 1470
▁ONLY 1471
▁IMPORTANT 1472
▁CỬ 1473
▁HIGH 1474
▁PHÓNG 1475
▁EXPERIENCE 1476
▁ĐEN 1477
RK 1478
▁RÚT 1479
Ừ 1480
▁NỬA 1481
▁BEING 1482
▁GHÉ 1483
▁MIỀN 1484
▁BÓ 1485
▁TUYỂN 1486
▁THANG 1487
▁TỘC 1488
▁TẮC 1489
▁ĐUỔI 1490
▁THIỀN 1491
▁THÓI 1492
▁DEVELOP 1493
▁SHE 1494
LINE 1495
▁TRỐN 1496
▁NẤU 1497
▁CÚ 1498
▁PHẬN 1499
▁DUYÊN 1500
▁NHIỆT 1501
▁ĐỎ 1502
▁RỜI 1503
Ũ 1504
▁TIỂU 1505
▁NIÊN 1506
▁UNDERSTAND 1507
▁THƯỞNG 1508
▁ĐỢT 1509
▁XUÂN 1510
▁LIVE 1511
▁THROUGH 1512
▁SEAN 1513
▁CHỮA 1514
▁BẬT 1515
▁END 1516
▁COMPANIES 1517
▁NÃO 1518
▁QUẦN 1519
▁NỖ 1520
▁ĐÒI 1521
▁ĐAM 1522
▁THẰNG 1523
▁CHỤP 1524
▁TẢI 1525
▁Ờ 1526
▁KHẢO 1527
▁MOST 1528
▁CHANGE 1529
▁REAL 1530
▁ĐỐC 1531
▁KIÊN 1532
▁BINH 1533
▁CHÁN 1534
▁TECH 1535
▁CHUYẾN 1536
▁TỐC 1537
▁COURSE 1538
▁KHẤU 1539
▁SUẤT 1540
▁MƯA 1541
▁WORKING 1542
▁KÍNH 1543
▁DATA 1544
▁PLAY 1545
▁CALL 1546
▁THỤ 1547
▁FUN 1548
▁CƯỜNG 1549
▁TRẮNG 1550
▁TUYẾN 1551
▁BÊ 1552
▁KHÔ 1553
▁MÁ 1554
▁LẠNH 1555
▁MỆT 1556
▁SÀI 1557
▁THUÊ 1558
▁BĂNG 1559
▁CHẠM 1560
▁JOB 1561
▁HOME 1562
▁GIVE 1563
▁BỀN 1564
▁DƯỠNG 1565
▁VINH 1566
▁GÒN 1567
▁GUYS 1568
▁CHIẾM 1569
▁TẮT 1570
▁LEVEL 1571
▁SERIES 1572
▁GIỌNG 1573
▁OWN 1574
▁NHẰM 1575
▁KIỆM 1576
▁TUYÊN 1577
▁DOES 1578
PORT 1579
▁KHUÔN 1580
▁TIỀM 1581
▁CHẬM 1582
▁SÓNG 1583
▁TẤM 1584
▁WOW 1585
▁LỠ 1586
▁MẼ 1587
▁CHÓNG 1588
▁TỆ 1589
▁CUSTOMER 1590
▁CHÀNG 1591
LAND 1592
▁TẶNG 1593
▁XÊ 1594
▁DÂY 1595
▁LẪN 1596
▁INTEREST 1597
▁HAPPEN 1598
▁MỀM 1599
▁NGHIÊM 1600
▁THAO 1601
▁PUT 1602
▁LŨ 1603
▁AROUND 1604
▁CONTENT 1605
▁KHỨ 1606
▁GÀ 1607
▁RƯỢU 1608
▁TẠP 1609
▁BITCOIN 1610
- 1611
▁DOWN 1612
▁POINT 1613
▁TRÔNG 1614
▁SAME 1615
▁KHÚC 1616
▁NEXT 1617
▁HOÀI 1618
▁GIẾT 1619
▁NỌ 1620
▁BẦU 1621
▁LỐI 1622
▁PARTNER 1623
▁VỜI 1624
▁THỞ 1625
▁CĂNG 1626
▁THỪA 1627
▁SÔNG 1628
▁TÓC 1629
▁GIÂY 1630
▁ĐỈNH 1631
▁SUCCESS 1632
▁IDEA 1633
▁NỢ 1634
▁KHẮP 1635
▁VĨ 1636
▁NHUẬN 1637
▁RỪNG 1638
▁BẾP 1639
▁TÂN 1640
▁GOOGLE 1641
▁KHOẢNH 1642
▁BLOCKCHAIN 1643
▁GIÓ 1644
▁INTERNET 1645
▁KỊP 1646
▁BỮA 1647
▁AGAIN 1648
▁FOUNDER 1649
▁TỜ 1650
▁EXAMPLE 1651
▁TƯỚNG 1652
▁DĨ 1653
▁DẦU 1654
▁LỆNH 1655
▁TRỒNG 1656
▁CHUỖI 1657
▁ỦY 1658
▁THĂM 1659
▁TỊCH 1660
▁MONEY 1661
▁BEFORE 1662
▁NÚI 1663
▁FIND 1664
▁BẮN 1665
▁BỚT 1666
▁MIỄN 1667
▁ĐẾ 1668
▁GROUP 1669
▁AFTER 1670
▁XÀI 1671
▁TÀN 1672
▁NUMBER 1673
▁CẤU 1674
▁BẤM 1675
▁PHÓ 1676
▁ISRAEL 1677
▁QUÊ 1678
▁BETTER 1679
▁NỜ 1680
▁NHẤN 1681
▁HEAR 1682
▁CHỪNG 1683
▁VALUE 1684
▁HOẢNG 1685
▁KHEN 1686
▁SHOULD 1687
▁OPEN 1688
▁DIGITAL 1689
▁NỔ 1690
▁GỢI 1691
▁NHẮN 1692
▁CHỤC 1693
▁ĐẰNG 1694
▁THỔ 1695
▁CHẶN 1696
▁TREND 1697
▁LOẠN 1698
▁ĐIỆP 1699
▁KÉM 1700
▁CHALLENGE 1701
▁THẬP 1702
▁JOHN 1703
▁LOÀI 1704
▁ĐẢNG 1705
▁HUỐNG 1706
& 1707
▁NGĂN 1708
▁LỌC 1709
▁THREE 1710
▁TITAN 1711
▁GIẬN 1712
▁PLAN 1713
▁NGHÈO 1714
▁UH 1715
▁QUỶ 1716
▁PROJECT 1717
▁TRÚ 1718
▁THỎA 1719
▁CHIẾU 1720
▁FOCUS 1721
▁GẤP 1722
▁CỞI 1723
▁CÃI 1724
▁NHỈ 1725
▁HÃNG 1726
▁CẶP 1727
▁MỆNH 1728
▁LẦM 1729
▁VỠ 1730
▁HAPPY 1731
▁SUPPORT 1732
▁NGUYỆN 1733
▁LISTEN 1734
▁DESIGN 1735
▁XOAY 1736
▁STRESS 1737
▁QUÀ 1738
▁KHUYẾN 1739
▁NÚT 1740
▁SÀN 1741
▁EVERYTHING 1742
▁CEO 1743
Ẽ 1744
▁THÁC 1745
▁RUBY 1746
▁GÓI 1747
▁NGỪNG 1748
▁NGỌT 1749
▁INDUSTRY 1750
▁KHỐI 1751
▁THOUGH 1752
▁PLACE 1753
▁LÃI 1754
▁LÂM 1755
▁SHOP 1756
▁KHẲNG 1757
▁CULTURE 1758
▁QUITE 1759
▁ẤM 1760
▁SINGAPORE 1761
▁LIỆT 1762
▁PHỨC 1763
ATIVE 1764
▁BRING 1765
▁ANOTHER 1766
▁HIẾU 1767
▁TRIẾT 1768
▁TRẦM 1769
▁BIỆN 1770
▁CHÁY 1771
▁GIẤC 1772
EAST 1773
▁QUYỂN 1774
▁TRÂN 1775
▁GLOBAL 1776
▁NGỌC 1777
▁ẨM 1778
▁ỦA 1779
▁TĨNH 1780
▁TOGETHER 1781
▁BOOK 1782
▁SƯỚNG 1783
▁LINK 1784
▁HAVING 1785
▁BẬC 1786
▁HỦY 1787
▁NÀNG 1788
▁MIẾNG 1789
▁MẢNG 1790
▁GỌN 1791
▁ĐIỂN 1792
▁THUẦN 1793
▁THẤU 1794
▁FREE 1795
▁FRIEND 1796
▁SỮA 1797
▁TÓM 1798
▁FEW 1799
▁BẬN 1800
▁COUNTRY 1801
▁MENTIONED 1802
▁HIỆP 1803
▁LOẠT 1804
▁FOOD 1805
▁SPEAK 1806
▁ĐÈN 1807
▁TIKTOK 1808
▁VUA 1809
▁ALREADY 1810
▁KÈM 1811
▁PROBABLY 1812
▁SECOND 1813
▁SẠCH 1814
▁STORY 1815
▁TƯƠI 1816
▁TRUY 1817
▁INSIGHT 1818
▁NHÃN 1819
▁HEALTH 1820
▁EDUCATION 1821
▁SOCIAL 1822
▁SẾP 1823
▁ESPECIALLY 1824
Ử 1825
▁TIẾC 1826
▁LẶNG 1827
▁SÚNG 1828
▁SKILL 1829
▁SUBSCRIBE 1830
▁LỪA 1831
▁TRANS 1832
▁PLATFORM 1833
▁DÍNH 1834
▁CHỐI 1835
▁KEEP 1836
▁DÀY 1837
▁SẠN 1838
▁CHẶT 1839
▁DẮT 1840
▁DỌN 1841
▁SERVICE 1842
▁VIEW 1843
▁LÕI 1844
▁DŨNG 1845
▁BUÔN 1846
▁THUYỀN 1847
▁NGẠC 1848
▁NẮNG 1849
▁CONSUMER 1850
HẮC 1851
▁TRƯNG 1852
▁SPACE 1853
▁CONNECT 1854
▁FOLLOW 1855
▁ĐÙA 1856
▁TRẤN 1857
▁CREATE 1858
▁MIỆNG 1859
▁SOMETIMES 1860
▁EMAIL 1861
▁FUTURE 1862
▁BELIEVE 1863
▁LÍNH 1864
▁DƯỜNG 1865
▁ẢO 1866
▁PROCESS 1867
▁DIRECT 1868
▁HÃI 1869
▁ĐẠN 1870
▁COMMUNITY 1871
▁TRUMP 1872
▁ÚC 1873
▁NGƯỠNG 1874
▁LOGIC 1875
▁YORK 1876
▁THẨM 1877
▁LƯỢT 1878
▁FAMILY 1879
▁CLASS 1880
▁RÁC 1881
▁CHỐT 1882
▁OFFICE 1883
▁BẠO 1884
▁TUẤN 1885
▁LỤC 1886
▁HẰNG 1887
Ữ 1888
Ĩ 1889
Q 1890
Ỳ 1891
Ẵ 1892
Ý 1893
Ỵ 1894
า 1895
ว 1896
А 1897
К 1898
М 1899
Ỷ 1900
스 1901
이 1902
테 1903
– 1904
น 1905
. 1906
+ 1907
ง 1908
อ 1909
ม 1910
Ỹ 1911
เ 1912
ย 1913
ร 1914
แ 1915
ล 1916
ห 1917
ด 1918
ค 1919
จ 1920
ต 1921
ไ 1922
Н 1923
บ 1924
О 1925
ส 1926
ฟ 1927
ช 1928
ท 1929
ะ 1930
И 1931
ข 1932
П 1933
ธ 1934
Е 1935
我 1936
С 1937
ํ 1938
ใ 1939
ก 1940
렉 1941
堆 1942
人 1943
多 1944
一 1945
У 1946
Ы 1947
З 1948
駛 1949
統 1950
傳 1951
嗯 1952
Õ 1953
Ẳ 1954
ซ 1955
ผ 1956
Ẩ 1957
也 1958
友 1959
好 1960
更 1961
朋 1962
要 1963
Д 1964
Ш 1965
ษ 1966
買 1967
過 1968
Ц 1969
Ь 1970
Я 1971
ณ 1972
ฮ 1973
— 1974
你 1975
吃 1976
就 1977
後 1978
想 1979
抄 1980
掉 1981
比 1982
江 1983
稿 1984
那 1985
Ẫ 1986
Р 1987
Т 1988
Ằ 1989
Ặ 1990
Ắ 1991
Ă 1992
是 1993
Ậ 1994
Ấ 1995
Ộ 1996
Đ 1997
可 1998
能 1999
